fe
ff
00
01
02
fe
ff
00
01
02
fe
ff
00
01
02
fe
ff
00
01
02
fe
ff
00
01
02
fe
ff
00
01
02
fe
ff
00
01
02
fe
ff
00
01
02
fe
ff
00
01
02
fe
ff
00
01
02
fe
ff
00
01
02
fe
ff
00
01
02
fe
ff
00
01
02
fe
ff
00
01
02
fe
ff
00
01
02
fe
ff
00
01
02
fe
ff
00
01
02
fe
ff
00
01
02
fe
ff
00
01
02
fe
ff
00
01
02
fe
ff
00
01
02
fe
ff
00
01
02
fe
ff
00
01
02
fe
ff
00
01
02
fe
ff
00
01
02
fe
ff
00
01
02
fe
ff
00
01
02
fe
ff
00
01
02
fe
ff
00
01
02
fe
ff
00
01
02
fe
ff
00
01
02
fe
ff
00
01
02
fe
ff
00
01
02
fe
ff
00
01
02
fe
ff
00
01
02
fe
ff
00
01
02
fe
ff
00
01
02
fe
ff
00
01
02
fe
ff
00
01
02
fe
ff
00
01
02
fe
ff
00
01
02
fe
ff
00
01
02
fe
ff
00
01
02
fe
ff
00
01
02
fe
ff
00
01
02
fe
ff
00
01
02
fe
ff
00
01
02
fe
ff
00
01
02
fe
ff
00
01
02
fe
ff
00
01
02
fe
ff
00
01
02
fe
ff
00
01
02
fe
ff
00
01
02
fe
ff
00
01
02
fe
ff
00
01
02
fe
ff
00
01
02
fe
ff
00
01
02
fe
ff
00
01
02
fe
ff
00
01
02
fe
ff
00
01
02
fe
ff
00
01
02
fe
ff
00
01
02
fe
ff
00
01
02
fe
ff
00
01
02
fe
ff
00
01
02
fe
ff
00
01
02
fe
ff
00
01
02
fe
ff
00
01
02
fe
ff
00
01
02
fe
ff
00
01
02
fe
ff
00
01
02
fe
ff
00
01
02
fe
ff
00
01
02
fe
ff
00
01
02
fe
ff
00
01
02
fe
ff
00
01
02
fe
ff
00
01
02
fe
ff
00
01
02
fe
ff
00
01
02
fe
ff
00
01
02
fe
ff
00
01
02
fe
ff
00
01
02
fe
ff
00
01
02
fe
ff
00
01
02
fe
ff
00
01
02
fe
ff
00
01
02
fe
ff
00
01
02
fe
ff
00
01
02
fe
ff
00
01
02
fe
ff
00
01
02
fe
ff
00
01
02
fe
ff
00
01
02
fe
ff
00
01
02
fe
ff
00
01
02
fe
ff
00
01
02
fe
ff
00
01
02
fe
ff
00
01
02
fe
ff
00
01
02
fe
ff
00
01
02
fe
ff
00
01
02
fe
ff
00
01
02
fe
ff
00
01
02
fe
ff
00
01
02
fe
ff
00
01
02
fe
ff
00
01
02
fe
ff
00
01
02
fe
ff
00
01
02
fe
ff
00
01
02
fe
ff
00
01
02
fe
ff
00
01
02
fe
ff
00
01
02
fe
ff
00
01
02
fe
ff
00
01
02
fe
ff
00
01
02
fe
ff
00
01
02
fe
ff
00
01
02
fe
ff
00
01
02
fe
ff
00
01
02
fe
ff
00
01
02
fe
ff
00
01
02
fe
ff
00
01
02
fe
ff
00
01
02
fe
ff
00
01
02
fe
ff
00
01
02
fe
ff
00
01
02
fe
ff
00
01
02
fe
ff
00
01
02
fe
ff
00
01
02
fe
ff
00
01
02
fe
ff
00
01
02
fe
ff
00
01
02
fe
ff
00
01
02
fe
ff
00
01
02
fe
ff
00
01
02
fe
ff
00
01
02
fe
ff
00
01
02
fe
ff
00
01
02
fe
ff
00
01
02
fe
ff
00
01
02
fe
ff
00
01
02
fe
ff
00
01
02
fe
ff
00
01
02
fe
ff
00
01
02
fe
ff
00
01
02
fe
ff
00
01
02
fe
ff
00
01
02
fe
ff
00
01
02
fe
ff
00
01
02
fe
ff
00
01
02
fe
ff
00
01
02
fe
ff
00
01
02
fe
ff
00
01
02
fe
ff
00
01
02
fe
ff
00
01
02
fe
ff
00
01
02
fe
ff
00
01
02
fe
ff
00
01
02
fe
ff
00
01
02
fe
ff
00
01
02
fe
ff
00
01
02
fe
ff
00
01
02
fe
ff
00
01
02
fe
ff
00
01
02
fe
ff
00
01
02
fe
ff
00
01
02
fe
ff
00
01
02
fe
ff
00
01
02
fe
ff
00
01
02
fe
ff
00
01
02
fe
ff
00
01
02
fe
ff
00
01
02
fe
ff
00
01
02
fe
ff
00
01
02
fe
ff
00
01
02
fe
ff
00
01
02
fe
ff
00
01
02
fe
ff
00
01
02
fe
ff
00
01
02
fe
ff
00
01
02
fe
ff
00
01
02
fe
ff
00
01
02
fe
ff
00
01
02
fe
ff
00
01
02
fe
ff
00
01
02
fe
ff
00
01
02
fe
ff
00
01
02
fe
ff
00
01
02
fe
ff
00
01
02
fe
ff
00
01
02
fe
ff
00
01
02
fe
ff
00
01
02
fe
ff
00
01
02
fe
ff
00
01
02
fe
ff
00
01
02
fe
ff
00
01
02
fe
ff
00
01
02
fe
ff
00
01
02
fe
ff
00
01
02
fe
ff
00
01
02
fe
ff
00
01
02
fe
ff
00
01
02
fe
ff
00
01
02
fe
ff
00
01
02
fe
ff
00
01
02
fe
ff
00
01
02
fe
ff
00
01
02
fe
ff
00
01
02
fe
ff
00
01
02
fe
ff
00
01
02
fe
ff
00
01
02
fe
ff
00
01
02
fe
ff
00
01
02
fe
ff
00
01
02
fe
ff
00
01
02
fe
ff
00
01
02
fe
ff
00
01
02
fe
ff
00
01
02
fe
ff
00
01
02
fe
ff
00
01
02
fe
ff
00
01
02
fe
ff
00
01
02
fe
ff
00
01
02
fe
ff
00
01
02
fe
ff
00
01
02
fe
ff
00
01
02
fe
ff
00
01
02
fe
ff
00
01
02
fe
ff
00
01
02
fe
ff
00
01
02
fe
ff
00
01
02
fe
ff
00
01
02
fe
ff
00
01
02
fe
ff
00
01
02
fe
ff
00
01
02
fe
ff
00
01
02
fe
ff
00
01
02
fe
ff
00
01
02
fe
ff
00
01
02
fe
ff
00
01
02
fe
ff
00
01
02
fe
ff
00
01
02
fe
ff
00
01
02
fe
ff
00
01
02
fe
ff
00
01
02
fe
ff
00
01
02
fe
ff
00
01
02
fe
ff
00
01
02
fe
ff
00
01
02
fe
ff
00
01
02
fe
ff
00
01
02
fe
ff
00
01
02
fe
ff
00
01
02
fe
ff
00
01
02
fe
ff
00
01
02
fe
ff
00
01
02
fe
ff
00
01
02
fe
ff
00
01
02
fe
ff
00
01
02
fe
ff
00
01
02
fe
ff
00
01
02
fe
ff
00
01
02
fe
ff
00
01
02
fe
ff
00
01
02
fe
ff
00
01
02
fe
ff
00
01
02
fe
ff
00
01
02
fe
ff
00
01
02
fe
ff
00
01
02
fe
ff
00
01
02
fe
ff
00
01
02
fe
ff
00
01
02
fe
ff
00
01
02
fe
ff
00
01
02
fe
ff
00
01
02
fe
ff
00
01
02
fe
ff
00
01
02
fe
ff
00
01
02
fe
ff
00
01
02
fe
ff
00
01
02
fe
ff
00
01
02
fe
ff
00
01
02
fe
ff
00
01
02
fe
ff
00
01
02
fe
ff
00
01
02
fe
ff
00
01
02
fe
ff
00
01
02
fe
ff
00
01
02
fe
ff
00
01
02
fe
ff
00
01
02
fe
ff
00
01
02
fe
ff
00
01
02
fe
ff
00
01
02
fe
ff
00
01
02
fe
ff
00
01
02
fe
ff
00
01
02
fe
ff
00
01
02
fe
ff
00
01
02
fe
ff
00
01
02
fe
ff
00
01
02
fe
ff
00
01
02
fe
ff
00
01
02
fe
ff
00
01
02
fe
ff
00
01
02
fe
ff
00
01
02
fe
ff
00
01
02
fe
ff
00
01
02
fe
ff
00
01
02
fe
ff
00
01
02
fe
ff
00
01
02
fe
ff
00
01
02
fe
ff
00
01
02
fe
ff
00
01
02
fe
ff
00
01
02
fe
ff
00
01
02
fe
ff
00
01
02
fe
ff
00
01
02
fe
ff
00
01
02
fe
ff
00
01
02
fe
ff
00
01
02
fe
ff
00
01
02
fe
ff
00
01
02
fe
ff
00
01
02
fe
ff
00
01
02
fe
ff
00
01
02
fe
ff
00
01
02
fe
ff
00
01
02
fe
ff
00
01
02
fe
ff
00
01
02
fe
ff
00
01
02
fe
ff
00
01
02
fe
ff
00
01
02
fe
ff
00
01
02
fe
ff
00
01
02
fe
ff
00
01
02
fe
ff
00
01
02
fe
ff
00
01
02
fe
ff
00
01
02
fe
ff
00
01
02
fe
ff
00
01
02
fe
ff
00
01
02
fe
ff
00
01
02
fe
ff
00
01
02
fe
ff
00
01
02
fe
ff
00
01
02
fe
ff
00
01
02
fe
ff
00
01
02
fe
ff
00
01
02
fe
ff
00
01
02
fe
ff
00
01
02
fe
ff
00
01
02
fe
ff
00
01
02
fe
ff
00
01
02
fe
ff
00
01
02
fe
ff
00
01
02
fe
ff
00
01
02
fe
ff
00
01
02
fe
ff
00
01
02
fe
ff
00
01
02
fe
ff
00
01
02
fe
ff
00
01
02
fe
ff
00
01
02
fe
ff
00
01
02
fe
ff
00
01
02
fe
ff
00
01
02
fe
ff
00
01
02
fe
ff
00
01
02
fe
ff
00
01
02
fe
ff
00
01
02
fe
ff
00
01
02
fe
ff
00
01
02
fe
ff
00
01
02
fe
ff
00
01
02
fe
ff
00
01
02
fe
ff
00
01
02
fe
ff
00
01
02
fe
ff
00
01
02
fe
ff
00
01
02
fe
ff
00
01
02
fe
ff
00
01
02
fe
ff
00
01
02
fe
ff
00
01
02
fe
ff
00
01
02
fe
ff
00
01
02
fe
ff
00
01
02
fe
ff
00
01
02
fe
ff
00
01
02
fe
ff
00
01
02
fe
ff
00
01
02
fe
ff
00
01
02
fe
ff
00
01
02
fe
ff
00
01
02
fe
ff
00
01
02
fe
ff
00
01
02
fe
ff
00
01
02
fe
ff
00
01
02
fe
ff
00
01
02
fe
ff
00
01
02
fe
ff
00
01
02
fe
ff
00
01
02
fe
ff
00
01
02
fe
ff
00
01
02
fe
ff
00
01
02
fe
ff
00
01
02
fe
ff
00
01
02
fe
ff
00
01
02
fe
ff
00
01
02
fe
ff
00
01
02
fe
ff
00
01
02
fe
ff
00
01
02
fe
ff
00
01
02
fe
ff
00
01
02
fe
ff
00
01
02
fe
ff
00
01
02
fe
ff
00
01
02
fe
ff
00
01
02
fe
ff
00
01
02
fe
ff
00
01
02
fe
ff
00
01
02
fe
ff
00
01
02
fe
ff
00
01
02
fe
ff
00
01
02
fe
ff
00
01
02
fe
ff
00
01
02
fe
ff
00
01
02
fe
ff
00
01
02
fe
ff
00
01
02
fe
ff
00
01
02
fe
ff
00
01
02
fe
ff
00
01
02
fe
ff
00
01
02
fe
ff
00
01
02
fe
ff
00
01
02
fe
ff
00
01
02
fe
ff
00
01
02
fe
ff
00
01
02
fe
ff
00
01
02
fe
ff
00
01
02
fe
ff
00
01
02
fe
ff
00
01
02
fe
ff
00
01
02
fe
ff
00
01
02
fe
ff
00
01
02
fe
ff
00
01
02
fe
ff
00
01
02
fe
ff
00
01
02
fe
ff
00
01
02
fe
ff
00
01
02
fe
ff
00
01
02
fe
ff
00
01
02
fe
ff
00
01
02
fe
ff
00
01
02
fe
ff
00
01
02
fe
ff
00
01
02
fe
ff
00
01
02
fe
ff
00
01
02
fe
ff
00
01
02
fe
ff
00
01
02
fe
ff
00
01
02
fe
ff
00
01
02
fe
ff
00
01
02
fe
ff
00
01
02
fe
ff
00
01
02
fe
ff
00
01
02
fe
ff
00
01
02
fe
ff
00
01
02
fe
ff
00
01
02
fe
ff
00
01
02
fe
ff
00
01
02
fe
ff
00
01
02
fe
ff
00
01
02
fe
ff
00
01
02
fe
ff
00
01
02
fe
ff
00
01
02
fe
ff
00
01
02
fe
ff
00
01
02
fe
ff
00
01
02
fe
ff
00
01
02
fe
ff
00
01
02
fe
ff
00
01
02
fe
ff
00
01
02
fe
ff
00
01
02
fe
ff
00
01
02
fe
ff
00
01
02
fe
ff
00
01
02
fe
ff
00
01
02
fe
ff
00
01
02
fe
ff
00
01
02
fe
ff
00
01
02
fe
ff
00
01
02
fe
ff
00
01
02
fe
ff
00
01
02
fe
ff
00
01
02
fe
ff
00
01
02
fe
ff
00
01
02
fe
ff
00
01
02
fe
ff
00
01
02
fe
ff
00
01
02
fe
ff
00
01
02
fe
ff
00
01
02
fe
ff
00
01
02
fe
ff
00
01
02
fe
ff
00
01
02
fe
ff
00
01
02
fe
ff
00
01
02
fe
ff
00
01
02
fe
ff
00
01
02
fe
ff
00
01
02
fe
ff
00
01
02
fe
ff
00
01
02
fe
ff
00
01
02
fe
ff
00
01
02
fe
ff
00
01
02
fe
ff
00
01
02
fe
ff
00
01
02
fe
ff
00
01
02
fe
ff
00
01
02
fe
ff
00
01
02
fe
ff
00
01
02
fe
ff
00
01
02
fe
ff
00
01
02
fe
ff
00
01
02
fe
ff
00
01
02
fe
ff
00
01
02
fe
ff
00
01
02
fe
ff
00
01
02
fe
ff
00
01
02
fe
ff
00
01
02
fe
ff
00
01
02
fe
ff
00
01
02
fe
ff
00
01
02
fe
ff
00
01
02
fe
ff
00
01
02
fe
ff
00
01
02
fe
ff
00
01
02
fe
ff
00
01
02
fe
ff
00
01
02
fe
ff
00
01
02
fe
ff
00
01
02
fe
ff
00
01
02
fe
ff
00
01
02
fe
ff
00
01
02
fe
ff
00
01
02
fe
ff
00
01
02
fe
ff
00
01
02
fe
ff
00
01
02
fe
ff
00
01
02
fe
ff
00
01
02
fe
ff
00
01
02
fe
ff
00
01
02
fe
ff
00
01
02
fe
ff
00
01
02
fe
ff
00
01
02
fe
ff
00
01
02
fe
ff
00
01
02
fe
ff
00
01
02
fe
ff
00
01
02
fe
ff
00
01
02
fe
ff
00
01
02
fe
ff
00
01
02
fe
ff
00
01
02
fe
ff
00
01
02
fe
ff
00
01
02
fe
ff
00
01
02
fe
ff
00
01
02
fe
ff
00
01
02
fe
ff
00
01
02
fe
ff
00
01
02
fe
ff
00
01
02
fe
ff
00
01
02
fe
ff
00
01
02
fe
ff
00
01
02
fe
ff
00
01
02
fe
ff
00
01
02
fe
ff
00
01
02
fe
ff
00
01
02
fe
ff
00
01
02
fe
ff
00
01
02
fe
ff
00
01
02
fe
ff
00
01
02
fe
ff
00
01
02
fe
ff
00
01
02
fe
ff
00
01
02
fe
ff
00
01
02
fe
ff
00
01
02
fe
ff
00
01
02
fe
ff
00
01
02
fe
ff
00
01
02
fe
ff
00
01
02
fe
ff
00
01
02
fe
ff
00
01
02
fe
ff
00
01
02
fe
ff
00
01
02
fe
ff
00
01
02
fe
ff
00
01
02
fe
ff
00
01
02
fe
ff
00
01
02
fe
ff
00
01
02
fe
ff
00
01
02
fe
ff
00
01
02
fe
ff
00
01
02
fe
ff
00
01
02
fe
ff
00
01
02
fe
ff
00
01
02
fe
ff
00
01
02
fe
ff
00
01
02
fe
ff
00
01
02
fe
ff
00
01
02
fe
ff
00
01
02
fe
ff
00
01
02
fe
ff
00
01
02
fe
ff
00
01
02
fe
ff
00
01
02
fe
ff
00
01
02
fe
ff
00
01
02
fe
ff
00
01
02
fe
ff
00
01
02
fe
ff
00
01
02
fe
ff
00
01
02
fe
ff
00
01
02
fe
ff
00
01
02
fe
ff
00
01
02
fe
ff
00
01
02
fe
ff
00
01
02
fe
ff
00
01
02
fe
ff
00
01
02
fe
ff
00
01
02
fe
ff
00
01
02
fe
ff
00
01
02
fe
ff
00
01
02
fe
ff
00
01
02
fe
ff
00
01
02
fe
ff
00
01
02
fe
ff
00
01
02
fe
ff
00
01
02
fe
ff
00
01
02
fe
ff
00
01
02
fe
ff
00
01
02
fe
ff
00
01
02
fe
ff
00
01
02
fe
ff
00
01
02
fe
ff
00
01
02
fe
ff
00
01
02
fe
ff
00
01
02
fe
ff
00
01
02
fe
ff
00
01
02
fe
ff
00
01
02
fe
ff
00
01
02
fe
ff
00
01
02
fe
ff
00
01
02
fe
ff
00
01
02
fe
ff
00
01
02
fe
ff
00
01
02
fe
ff
00
01
02
fe
ff
00
01
02
fe
ff
00
01
02
fe
ff
00
01
02
fe
ff
00
01
02
fe
ff
00
01
02
fe
ff
00
01
02
fe
ff
00
01
02
fe
ff
00
01
02
fe
ff
00
01
02
fe
ff
00
01
02
fe
ff
00
01
02
fe
ff
00
01
02
fe
ff
00
01
02
fe
ff
00
01
02
fe
ff
00
01
02
fe
ff
00
01
02
fe
ff
00
01
02
fe
ff
00
01
02
fe
ff
00
01
02
fe
ff
00
01
02
fe
ff
00
01
02
fe
ff
00
01
02
fe
ff
00
01
02
fe
ff
00
01
02
fe
ff
00
01
02
fe
ff
00
01
02
fe
ff
00
01
02
fe
ff
00
01
02
fe
ff
00
01
02
fe
ff
00
01
02
fe
ff
00
01
02
fe
ff
00
01
02
fe
ff
00
01
02
fe
ff
00
01
02
fe
ff
00
01
02
fe
ff
00
01
02
fe
ff
00
01
02
fe
ff
00
01
02
fe
ff
00
01
02
fe
ff
00
01
02
fe
ff
00
01
02
fe
ff
00
01
02
fe
ff
00
01
02
fe
ff
00
01
02
fe
ff
00
01
02
fe
ff
00
01
02
fe
ff
00
01
02
fe
ff
00
01
02
fe
ff
00
01
02
fe
ff
00
01
02
fe
ff
00
01
02
fe
ff
00
01
02
fe
ff
00
01
02
fe
ff
00
01
02
fe
ff
00
01
02
fe
ff
00
01
02
fe
ff
00
01
02
fe
ff
00
01
02
fe
ff
00
01
02
fe
ff
00
01
02
fe
ff
00
01
02
fe
ff
00
01
02
fe
ff
00
01
02
fe
ff
00
01
02
fe
ff
00
01
02
fe
ff
00
01
02
fe
ff
00
01
02
fe
ff
00
01
02
fe
ff
00
01
02
fe
ff
00
01
02
fe
ff
00
01
02
fe
ff
00
01
02
fe
ff
00
01
02
fe
ff
00
01
02
fe
ff
00
01
02
fe
ff
00
01
02
fe
ff
00
01
02
fe
ff
00
01
02
fe
ff
00
01
02
fe
ff
00
01
02
fe
ff
00
01
02
fe
ff
00
01
02
fe
ff
00
01
02
fe
ff
00
01
02
fe
ff
00
01
02
fe
ff
00
01
02
fe
ff
00
01
02
fe
ff
00
01
02
fe
ff
00
01
02
fe
ff
00
01
02
fe
ff
00
01
02
fe
ff
00
01
02
fe
ff
00
01
02
fe
ff
00
01
02
fe
ff
00
01
02
fe
ff
00
01
02
fe
ff
00
01
02
fe
ff
00
01
02
fe
ff
00
01
02
fe
ff
00
01
02
fe
ff
00
01
02
fe
ff
00
01
02
fe
ff
00
01
02
fe
ff
00
01
02
fe
ff
00
01
02
fe
ff
00
01
02
fe
ff
00
01
02
fe
ff
00
01
02
fe
ff
00
01
02
fe
ff
00
01
02
fe
ff
00
01
02
fe
ff
00
01
02
fe
ff
00
01
02
fe
ff
00
01
02
fe
ff
00
01
02
fe
ff
00
01
02
fe
ff
00
01
02
fe
ff
00
01
02
fe
ff
00
01
02
fe
ff
00
01
02
fe
ff
00
01
02
fe
ff
00
01
02
fe
ff
00
01
02
fe
ff
00
01
02
fe
ff
00
01
02
fe
ff
00
01
02
fe
ff
00
01
02
fe
ff
00
01
02
fe
ff
00
01
02
fe
ff
00
01
02
fe
ff
00
01
02
fe
ff
00
01
02
fe
ff
00
01
02
fe
ff
00
01
02
fe
ff
00
01
02
fe
ff
00
01
02
fe
ff
00
01
02
fe
ff
00
01
02
fe
ff
00
01
02
fe
ff
00
01
02
fe
ff
00
01
02
fe
ff
00
01
02
fe
ff
00
01
02
fe
ff
00
01
02
fe
ff
00
01
02
fe
ff
00
01
02
fe
ff
00
01
02
fe
ff
00
01
02
fe
ff
00
01
02
fe
ff
00
01
02
fe
ff
00
01
02
fe
ff
00
01
02
fe
ff
00
01
02
fe
ff
00
01
02
fe
ff
00
01
02
fe
ff
00
01
02
fe
ff
00
01
02
fe
ff
00
01
02
fe
ff
00
01
02
fe
ff
00
01
02
fe
ff
00
01
02
fe
ff
00
01
02
fe
ff
00
01
02
fe
ff
00
01
02
fe
ff
00
01
02
fe
ff
00
01
02
fe
ff
00
01
02
fe
ff
00
01
02
fe
ff
00
01
02
fe
ff
00
01
02
fe
ff
00
01
02
fe
ff
00
01
02
fe
ff
00
01
02
fe
ff
00
01
02
fe
ff
00
01
02
fe
ff
00
01
02
fe
ff
00
01
02
fe
ff
00
01
02
fe
ff
00
01
02
fe
ff
00
01
02
fe
ff
00
01
02
fe
ff
00
01
02
fe
ff
00
01
02
fe
ff
00
01
02
fe
ff
00
01
02
fe
ff
00
01
02
fe
ff
00
01
02
fe
ff
00
01
02
fe
ff
00
01
02
fe
ff
00
01
02
fe
ff
00
01
02
fe
ff
00
01
02
fe
ff
00
01
02
fe
ff
00
01
02
fe
ff
00
01
02
fe
ff
00
01
02
fe
ff
00
01
02
fe
ff
00
01
02
fe
ff
00
01
02
fe
ff
00
01
02
fe
ff
00
01
02
fe
ff
00
01
02
fe
ff
00
01
02
fe
ff
00
01
02
fe
ff
00
01
02
fe
ff
00
01
02
fe
ff
00
01
02
fe
ff
00
01
02
fe
ff
00
01
02
fe
ff
00
01
02
fe
ff
00
01
02
fe
ff
00
01
02
fe
ff
00
01
02
fe
ff
00
01
02
fe
ff
00
01
02
fe
ff
00
01
02
fe
ff
00
01
02
fe
ff
00
01
02
fe
ff
00
01
02
fe
ff
00
01
02
fe
ff
00
01
02
fe
ff
00
01
02
fe
ff
00
01
02
fe
ff
00
01
02
fe
ff
00
01
02
fe
ff
00
01
02
fe
ff
00
01
02
fe
ff
00
01
02
fe
ff
00
01
02
fe
ff
00
01
02
fe
ff
00
01
02
fe
ff
00
01
02
fe
ff
00
01
02
fe
ff
00
01
02
fe
ff
00
01
02
fe
ff
00
01
02
fe
ff
00
01
02
fe
ff
00
01
02
fe
ff
00
01
02
fe
ff
00
01
02
fe
ff
00
01
02
fe
ff
00
01
02
fe
ff
00
01
02
fe
ff
00
01
02
fe
ff
00
01
02
fe
ff
00
01
02
fe
ff
00
01
02
fe
ff
00
01
02
fe
ff
00
01
02
fe
ff
00
01
02
fe
ff
00
01
02
fe
ff
00
01
02
fe
ff
00
01
02
fe
ff
00
01
02
fe
ff
00
01
02
fe
ff
00
01
02
fe
ff
00
01
02
fe
ff
00
01
02
fe
ff
00
01
02
fe
ff
00
01
02
fe
ff
00
01
02
fe
ff
00
01
02
fe
ff
00
01
02
fe
ff
00
01
02
fe
ff
00
01
02
fe
ff
00
01
02
fe
ff
00
01
02
fe
ff
00
01
02
fe
ff
00
01
02
fe
ff
00
01
02
fe
ff
00
01
02
fe
ff
00
01
02
fe
ff
00
01
02
fe
ff
00
01
02
fe
ff
00
01
02
fe
ff
00
01
02
fe
ff
00
01
02
fe
ff
00
01
02
fe
ff
00
01
02
fe
ff
00
01
02
fe
ff
00
01
02
fe
ff
00
01
02
fe
ff
00
01
02
fe
ff
00
01
02
fe
ff
00
01
02
fe
ff
00
01
02
fe
ff
00
01
02
fe
ff
00
01
02
fe
ff
00
01
02
fe
ff
00
01
02
fe
ff
00
01
02
fe
ff
00
01
02
fe
ff
00
01
02
fe
ff
00
01
02
fe
ff
00
01
02
fe
ff
00
01
02
fe
ff
00
01
02
fe
ff
00
01
02
fe
ff
00
01
02
fe
ff
00
01
02
fe
ff
00
01
02
fe
ff
00
01
02
fe
ff
00
01
02
fe
ff
00
01
02
fe
ff
00
01
02
fe
ff
00
01
02
fe
ff
00
01
02
fe
ff
00
01
02
fe
ff
00
01
02
fe
ff
00
01
02
fe
ff
00
01
02
fe
ff
00
01
02
fe
ff
00
01
02
fe
ff
00
01
02
fe
ff
00
01
02
fe
ff
00
01
02
fe
ff
00
01
02
fe
ff
00
01
02
fe
ff
00
01
02
fe
ff
00
01
02
fe
ff
00
01
02
fe
ff
00
01
02
fe
ff
00
01
02
fe
ff
00
01
02
fe
ff
00
01
02
fe
ff
00
01
02
fe
ff
00
01
02
fe
ff
00
01
02
fe
ff
00
01
02
fe
ff
00
01
02
fe
ff
00
01
02
fe
ff
00
01
02
fe
ff
00
01
02
fe
ff
00
01
02
fe
ff
00
01
02
fe
ff
00
01
02
fe
ff
00
01
02
fe
ff
00
01
02
fe
ff
00
01
02
fe
ff
00
01
02
fe
ff
00
01
02
fe
ff
00
01
02
fe
ff
00
01
02
fe
ff
00
01
02
fe
ff
00
01
02
fe
ff
00
01
02
fe
ff
00
01
02
fe
ff
00
01
02
fe
ff
00
01
02
fe
ff
00
01
02
fe
ff
00
01
02
fe
ff
00
01
02
fe
ff
00
01
02
fe
ff
00
01
02
fe
ff
00
01
02
fe
ff
00
01
02
fe
ff
00
01
02
fe
ff
00
01
02
fe
ff
00
01
02
fe
ff
00
01
02
fe
ff
00
01
02
fe
ff
00
01
02
fe
ff
00
01
02
fe
ff
00
01
02
fe
ff
00
01
02
fe
ff
00
01
02
fe
ff
00
01
02
fe
ff
00
01
02
fe
ff
00
01
02
fe
ff
00
01
02
fe
ff
00
01
02
fe
ff
00
01
02
fe
ff
00
01
02
fe
ff
00
01
02
fe
ff
00
01
02
fe
ff
00
01
02
fe
ff
00
01
02
fe
ff
00
01
02
fe
ff
00
01
02
fe
ff
00
01
02
fe
ff
00
01
02
fe
ff
00
01
02
fe
ff
00
01
02
fe
ff
00
01
02
fe
ff
00
01
02
fe
ff
00
01
02
fe
ff
00
01
02
fe
ff
00
01
02
fe
ff
00
01
02
fe
ff
00
01
02
fe
ff
00
01
02
fe
ff
00
01
02
fe
ff
00
01
02
fe
ff
00
01
02
fe
ff
00
01
02
fe
ff
00
01
02
fe
ff
00
01
02
fe
ff
00
01
02
fe
ff
00
01
02
fe
ff
00
01
02
fe
ff
00
01
02
fe
ff
00
01
02
fe
ff
00
01
02
fe
ff
00
01
02
fe
ff
00
01
02
fe
ff
00
01
02
fe
ff
00
01
02
fe
ff
00
01
02
fe
ff
00
01
02
fe
ff
00
01
02
fe
ff
00
01
02
fe
ff
00
01
02
fe
ff
00
01
02
fe
ff
00
01
02
fe
ff
00
01
02
fe
ff
00
01
02
fe
ff
00
01
02
fe
ff
00
01
02
fe
ff
00
01
02
fe
ff
00
01
02
fe
ff
00
01
02
fe
ff
00
01
02
fe
ff
00
01
02
fe
ff
00
01
02
fe
ff
00
01
02
fe
ff
00
01
02
fe
ff
00
01
02
fe
ff
00
01
02
fe
ff
00
01
02
fe
ff
00
01
02
fe
ff
00
01
02
fe
ff
00
01
02
fe
ff
00
01
02
fe
ff
00
01
02
fe
ff
00
01
02
fe
ff
00
01
02
fe
ff
00
01
02
fe
ff
00
01
02
fe
ff
00
01
02
fe
ff
00
01
02
fe
ff
00
01
02
fe
ff
00
01
02
fe
ff
00
01
02
fe
ff
00
01
02
fe
ff
00
01
02
fe
ff
00
01
02
fe
ff
00
01
02
fe
ff
00
01
02
fe
ff
00
01
02
fe
ff
00
01
02
fe
ff
00
01
02
fe
ff
00
01
02
fe
ff
00
01
02
fe
ff
00
01
02
fe
ff
00
01
02
fe
ff
00
01
02
fe
ff
00
01
02
fe
ff
00
01
02
fe
ff
00
01
02
fe
ff
00
01
02
fe
ff
00
01
02
fe
ff
00
01
02
fe
ff
00
01
02
fe
ff
00
01
02
fe
ff
00
01
02
fe
ff
00
01
02
fe
ff
00
01
02
fe
ff
00
01
02
fe
ff
00
01
02
fe
ff
00
01
02
fe
ff
00
01
02
fe
ff
00
01
02
fe
ff
00
01
02
fe
ff
00
01
02
fe
ff
00
01
02
fe
ff
00
01
02
fe
ff
00
01
02
fe
ff
00
01
02
fe
ff
00
01
02
fe
ff
00
01
02
fe
ff
00
01
02
fe
ff
00
01
02
fe
ff
00
01
02
fe
ff
00
01
02
fe
ff
00
01
02
fe
ff
00
01
02
fe
ff
00
01
02
fe
ff
00
01
02
fe
ff
00
01
02
fe
ff
00
01
02
fe
ff
00
01
02
fe
ff
00
01
02
fe
ff
00
01
02
fe
ff
00
01
02
fe
ff
00
01
02
fe
ff
00
01
02
fe
ff
00
01
02
fe
ff
00
01
02
fe
ff
00
01
02
fe
ff
00
01
02
fe
ff
00
01
02
fe
ff
00
01
02
fe
ff
00
01
02
fe
ff
00
01
02
fe
ff
00
01
02
fe
ff
00
01
02
fe
ff
00
01
02
fe
ff
00
01
02
fe
ff
00
01
02
fe
ff
00
01
02
fe
ff
00
01
02
fe
ff
00
01
02
fe
ff
00
01
02
fe
ff
00
01
02
fe
ff
00
01
02
fe
ff
00
01
02
fe
ff
00
01
02
fe
ff
00
01
02
fe
ff
00
01
02
fe
ff
00
01
02
fe
ff
00
01
02
fe
ff
00
01
02
fe
ff
00
01
02
fe
ff
00
01
02
fe
ff
00
01
02
fe
ff
00
01
02
fe
ff
00
01
02
fe
ff
00
01
02
fe
ff
00
01
02
fe
ff
00
01
02
fe
ff
00
01
02
fe
ff
00
01
02
fe
ff
00
01
02
fe
ff
00
01
02
fe
ff
00
01
02
fe
ff
00
01
02
fe
ff
00
01
02
fe
ff
00
01
02
fe
ff
00
01
02
fe
ff
00
01
02
fe
ff
00
01
02
fe
ff
00
01
02
fe
ff
00
01
02
fe
ff
00
01
02
fe
ff
00
01
02
fe
ff
00
01
02
fe
ff
00
01
02
fe
ff
00
01
02
fe
ff
00
01
02
fe
ff
00
01
02
fe
ff
00
01
02
fe
ff
00
01
02
fe
ff
00
01
02
fe
ff
00
01
02
fe
ff
00
01
02
fe
ff
00
01
02
fe
ff
00
01
02
fe
ff
00
01
02
fe
ff
00
01
02
fe
ff
00
01
02
fe
ff
00
01
02
fe
ff
00
01
02
fe
ff
00
01
02
fe
ff
00
01
02
fe
ff
00
01
02
fe
ff
00
01
02
fe
ff
00
01
02
fe
ff
00
01
02
fe
ff
00
01
02
fe
ff
00
01
02
fe
ff
00
01
02
fe
ff
00
01
02
fe
ff
00
01
02
fe
ff
00
01
02
fe
ff
00
01
02
fe
ff
00
01
02
fe
ff
00
01
02
fe
ff
00
01
02
fe
ff
00
01
02
fe
ff
00
01
02
fe
ff
00
01
02
fe
ff
00
01
02
fe
ff
00
01
02
fe
ff
00
01
02
fe
ff
00
01
02
fe
ff
00
01
02
fe
ff
00
01
02
fe
ff
00
01
02
fe
ff
00
01
02
fe
ff
00
01
02
fe
ff
00
01
02
fe
ff
00
01
02
fe
ff
00
01
02
fe
ff
00
01
02
fe
ff
00
01
02
fe
ff
00
01
02
fe
ff
00
01
02
fe
ff
00
01
02
fe
ff
00
01
02
fe
ff
00
01
02
fe
ff
00
01
02
fe
ff
00
01
02
fe
ff
00
01
02
fe
ff
00
01
02
fe
ff
00
01
02
fe
ff
00
01
02
fe
ff
00
01
02
fe
ff
00
01
02
fe
ff
00
01
02
fe
ff
00
01
02
fe
ff
00
01
02
fe
ff
00
01
02
fe
ff
00
01
02
fe
ff
00
01
02
fe
ff
00
01
02
fe
ff
00
01
02
fe
ff
00
01
02
fe
ff
00
01
02
fe
ff
00
01
02
fe
ff
00
01
02
fe
ff
00
01
02
fe
ff
00
01
02
fe
ff
00
01
02
fe
ff
00
01
02
fe
ff
00
01
02
fe
ff
00
01
02
fe
ff
00
01
02
fe
ff
00
01
02
fe
ff
00
01
02
fe
ff
00
01
02
fe
ff
00
01
02
fe
ff
00
01
02
fe
ff
00
01
02
fe
ff
00
01
02
fe
ff
00
01
02
fe
ff
00
01
02
fe
ff
00
01
02
fe
ff
00
01
02
fe
ff
00
01
02
fe
ff
00
01
02
fe
ff
00
01
02
fe
ff
00
01
02
fe
ff
00
01
02
fe
ff
00
01
02
fe
ff
00
01
02
fe
ff
00
01
02
fe
ff
00
01
02
fe
ff
00
01
02
fe
ff
00
01
02
fe
ff
00
01
02
fe
ff
00
01
02
fe
ff
00
01
02
fe
ff
00
01
02
fe
ff
00
01
02
fe
ff
00
01
02
fe
ff
00
01
02
fe
ff
00
01
02
fe
ff
00
01
02
fe
ff
00
01
02
fe
ff
00
01
02
fe
ff
00
01
02
fe
ff
00
01
02
fe
ff
00
01
02
fe
ff
00
01
02
fe
ff
00
01
02
fe
ff
00
01
02
fe
ff
00
01
02
fe
ff
00
01
02
fe
ff
00
01
02
fe
ff
00
01
02
fe
ff
00
01
02
fe
ff
00
01
02
fe
ff
00
01
02
fe
ff
00
01
02
fe
ff
00
01
02
fe
ff
00
01
02
fe
ff
00
01
02
fe
ff
00
01
02
fe
ff
00
01
02
fe
ff
00
01
02
fe
ff
00
01
02
fe
ff
00
01
02
fe
ff
00
01
02
fe
ff
00
01
02
fe
ff
00
01
02
fe
ff
00
01
02
fe
ff
00
01
02
fe
ff
00
01
02
fe
ff
00
01
02
fe
ff
00
01
02
fe
ff
00
01
02
fe
ff
00
01
02
fe
ff
00
01
02
fe
ff
00
01
02
fe
ff
00
01
02
fe
ff
00
01
02
fe
ff
00
01
02
fe
ff
00
01
02
fe
ff
00
01
02
fe
ff
00
01
02
fe
ff
00
01
02
fe
ff
00
01
02
fe
ff
00
01
02
fe
ff
00
01
02
fe
ff
00
01
02
fe
ff
00
01
02
fe
ff
00
01
02
fe
ff
00
01
02
fe
ff
00
01
02
fe
ff
00
01
02
fe
ff
00
01
02
fe
ff
00
01
02
fe
ff
00
01
02
fe
ff
00
01
02
fe
ff
00
01
02
fe
ff
00
01
02
fe
ff
00
01
02
fe
ff
00
01
02
fe
ff
00
01
02
fe
ff
00
01
02
fe
ff
00
01
02
fe
ff
00
01
02
fe
ff
00
01
02
fe
ff
00
01
02
fe
ff
00
01
02
fe
ff
00
01
02
fe
ff
00
01
02
fe
ff
00
01
02
fe
ff
00
01
02
fe
ff
00
01
02
fe
ff
00
01
02
fe
ff
00
01
02
fe
ff
00
01
02
fe
ff
00
01
02
fe
ff
00
01
02
fe
ff
00
01
02
fe
ff
00
01
02
fe
ff
00
01
02
fe
ff
00
01
02
fe
ff
00
01
02
fe
ff
00
01
02
fe
ff
00
01
02
fe
ff
00
01
02
fe
ff
00
01
02
fe
ff
00
01
02
fe
ff
00
01
02
fe
ff
00
01
02
fe
ff
00
01
02
fe
ff
00
01
02
fe
ff
00
01
02
fe
ff
00
01
02
fe
ff
00
01
02
fe
ff
00
01
02
fe
ff
00
01
02
fe
ff
00
01
02
fe
ff
00
01
02
fe
ff
00
01
02
fe
ff
00
01
02
fe
ff
00
01
02
fe
ff
00
01
02
fe
ff
00
01
02
fe
ff
00
01
02
fe
ff
00
01
02
fe
ff
00
01
02
fe
ff
00
01
02
fe
ff
00
01
02
fe
ff
00
01
02
fe
ff
00
01
02
fe
ff
00
01
02
fe
ff
00
01
02
fe
ff
00
01
02
fe
ff
00
01
02
fe
ff
00
01
02
fe
ff
00
01
02
fe
ff
00
01
02
fe
ff
00
01
02
fe
ff
00
01
02
fe
ff
00
01
02
fe
ff
00
01
02
fe
ff
00
01
02
fe
ff
00
01
02
fe
ff
00
01
02
fe
ff
00
01
02
fe
ff
00
01
02
fe
ff
00
01
02
fe
ff
00
01
02
fe
ff
00
01
02
fe
ff
00
01
02
fe
ff
00
01
02
fe
ff
00
01
02
fe
ff
00
01
02
fe
ff
00
01
02
fe
ff
00
01
02
fe
ff
00
01
02
fe
ff
00
01
02
fe
ff
00
01
02
fe
ff
00
01
02
fe
ff
00
01
02
fe
ff
00
01
02
fe
ff
00
01
02
fe
ff
00
01
02
fe
ff
00
01
02
fe
ff
00
01
02
fe
ff
00
01
02
fe
ff
00
01
02
fe
ff
00
01
02
fe
ff
00
01
02
fe
ff
00
01
02
fe
ff
00
01
02
fe
ff
00
01
02
fe
ff
00
01
02
fe
ff
00
01
02
fe
ff
00
01
02
fe
ff
00
01
02
fe
ff
00
01
02
fe
ff
00
01
02
fe
ff
00
01
02
fe
ff
00
01
02
fe
ff
00
01
02
fe
ff
00
01
02
fe
ff
00
01
02
fe
ff
00
01
02
fe
ff
00
01
02
fe
ff
00
01
02
fe
ff
00
01
02
fe
ff
00
01
02
fe
ff
00
01
02
fe
ff
00
01
02
fe
ff
00
01
02
fe
ff
00
01
02
fe
ff
00
01
02
fe
ff
00
01
02
fe
ff
00
01
02
fe
ff
00
01
02
fe
ff
00
01
02
fe
ff
00
01
02
fe
ff
00
01
02
fe
ff
00
01
02
fe
ff
00
01
02
fe
ff
00
01
02
fe
ff
00
01
02
fe
ff
00
01
02
fe
ff
00
01
02
fe
ff
00
01
02
fe
ff
00
01
02
fe
ff
00
01
02
fe
ff
00
01
02
fe
ff
00
01
02
fe
ff
00
01
02
fe
ff
00
01
02
fe
ff
00
01
02
fe
ff
00
01
02
fe
ff
00
01
02
fe
ff
00
01
02
fe
ff
00
01
02
fe
ff
00
01
02
fe
ff
00
01
02
fe
ff
00
01
02
fe
ff
00
01
02
fe
ff
00
01
02
fe
ff
00
01
02
fe
ff
00
01
02
fe
ff
00
01
02
fe
ff
00
01
02
fe
ff
00
01
02
fe
ff
00
01
02
fe
ff
00
01
02
fe
ff
00
01
02
fe
ff
00
01
02
fe
ff
00
01
02
fe
ff
00
01
02
fe
ff
00
01
02
fe
ff
00
01
02
fe
ff
00
01
02
fe
ff
00
01
02
fe
ff
00
01
02
fe
ff
00
01
02
fe
ff
00
01
02
fe
ff
00
01
02
fe
ff
00
01
02
fe
ff
00
01
02
fe
ff
00
01
02
fe
ff
00
01
02
fe
ff
00
01
02
fe
ff
00
01
02
fe
ff
00
01
02
fe
ff
00
01
02
fe
ff
00
01
02
fe
ff
00
01
02
fe
ff
00
01
02
fe
ff
00
01
02
fe
ff
00
01
02
fe
ff
00
01
02
fe
ff
00
01
02
fe
ff
00
01
02
fe
ff
00
01
02
fe
ff
00
01
02
fe
ff
00
01
02
fe
ff
00
01
02
fe
ff
00
01
02
fe
ff
00
01
02
fe
ff
00
01
02
fe
ff
00
01
02
fe
ff
00
01
02
fe
ff
00
01
02
fe
ff
00
01
02
fe
ff
00
01
02
fe
ff
00
01
02
fe
ff
00
01
02
fe
ff
00
01
02
fe
ff
00
01
02
fe
ff
00
01
02
fe
ff
00
01
02
fe
ff
00
01
02
fe
ff
00
01
02
fe
ff
00
01
02
fe
ff
00
01
02
fe
ff
00
01
02
fe
ff
00
01
02
fe
ff
00
01
02
fe
ff
00
01
02
fe
ff
00
01
02
fe
ff
00
01
02
fe
ff
00
01
02
fe
ff
00
01
02
fe
ff
00
01
02
fe
ff
00
01
02
fe
ff
00
01
02
fe
ff
00
01
02
fe
ff
00
01
02
fe
ff
00
01
02
fe
ff
00
01
02
fe
ff
00
01
02
fe
ff
00
01
02
fe
ff
00
01
02
fe
ff
00
01
02
fe
ff
00
01
02
fe
ff
00
01
02
fe
ff
00
01
02
fe
ff
00
01
02
fe
ff
00
01
02
fe
ff
00
01
02
fe
ff
00
01
02
fe
ff
00
01
02
fe
ff
00
01
02
fe
ff
00
01
02
fe
ff
00
01
02
fe
ff
00
01
02
fe
ff
00
01
02
fe
ff
00
01
02
fe
ff
00
01
02
fe
ff
00
01
02
fe
ff
00
01
02
fe
ff
00
01
02
fe
ff
00
01
02
fe
ff
00
01
02
fe
ff
00
01
02
fe
ff
00
01
02
fe
ff
00
01
02
fe
ff
00
01
02
fe
ff
00
01
02
fe
ff
00
01
02
fe
ff
00
01
02
fe
ff
00
01
02
fe
ff
00
01
02
fe
ff
00
01
02
fe
ff
00
01
02
fe
ff
00
01
02
fe
ff
00
01
02
fe
ff
00
01
02
fe
ff
00
01
02
fe
ff
00
01
02
fe
ff
00
01
02
fe
ff
00
01
02
fe
ff
00
01
02
fe
ff
00
01
02
fe
ff
00
01
02
fe
ff
00
01
02
fe
ff
00
01
02
fe
ff
00
01
02
fe
ff
00
01
02
fe
ff
00
01
02
fe
ff
00
01
02
fe
ff
00
01
02
fe
ff
00
01
02
fe
ff
00
01
02
fe
ff
00
01
02
fe
ff
00
01
02
fe
ff
00
01
02
fe
ff
00
01
02
fe
ff
00
01
02
fe
ff
00
01
02
fe
ff
00
01
02
fe
ff
00
01
02
fe
ff
00
01
02
fe
ff
00
01
02
fe
ff
00
01
02
fe
ff
00
01
02
fe
ff
00
01
02
fe
ff
00
01
02
fe
ff
00
01
02
fe
ff
00
01
02
fe
ff
00
01
02
fe
ff
00
01
02
fe
ff
00
01
02
fe
ff
00
01
02
fe
ff
00
01
02
fe
ff
00
01
02
fe
ff
00
01
02
fe
ff
00
01
02
fe
ff
00
01
02
fe
ff
00
01
02
fe
ff
00
01
02
fe
ff
00
01
02
fe
ff
00
01
02
fe
ff
00
01
02
fe
ff
00
01
02
fe
ff
00
01
02
fe
ff
00
01
02
fe
ff
00
01
02
fe
ff
00
01
02
fe
ff
00
01
02
fe
ff
00
01
02
fe
ff
00
01
02
fe
ff
00
01
02
fe
ff
00
01
02
fe
ff
00
01
02
fe
ff
00
01
02
fe
ff
00
01
02
fe
ff
00
01
02
fe
ff
00
01
02
fe
ff
00
01
02
fe
ff
00
01
02
fe
ff
00
01
02
fe
ff
00
01
02
fe
ff
00
01
02
fe
ff
00
01
02
fe
ff
00
01
02
fe
ff
00
01
02
fe
ff
00
01
02
fe
ff
00
01
02
fe
ff
00
01
02
fe
ff
00
01
02
fe
ff
00
01
02
fe
ff
00
01
02
fe
ff
00
01
02
fe
ff
00
01
02
fe
ff
00
01
02
fe
ff
00
01
02
fe
ff
00
01
02
fe
ff
00
01
02
fe
ff
00
01
02
fe
ff
00
01
02
fe
ff
00
01
02
fe
ff
00
01
02
fe
ff
00
01
02
fe
ff
00
01
02
fe
ff
00
01
02
fe
ff
00
01
02
fe
ff
00
01
02
fe
ff
00
01
02
fe
ff
00
01
02
fe
ff
00
01
02
fe
ff
00
01
02
fe
ff
00
01
02
fe
ff
00
01
02
fe
ff
00
01
02
fe
ff
00
01
02
fe
ff
00
01
02
fe
ff
00
01
02
fe
ff
00
01
02
fe
ff
00
01
02
fe
ff
00
01
02
fe
ff
00
01
02
fe
ff
00
01
02
fe
ff
00
01
02
fe
ff
00
01
02
fe
ff
00
01
02
fe
ff
00
01
02
fe
ff
00
01
02
fe
ff
00
01
02
fe
ff
00
01
02
fe
ff
00
01
02
fe
ff
00
01
02
fe
ff
00
01
02
fe
ff
00
01
02
fe
ff
00
01
02
fe
ff
00
01
02
fe
ff
00
01
02
fe
ff
00
01
02
fe
ff
00
01
02
fe
ff
00
01
02
fe
ff
00
01
02
fe
ff
00
01
02
fe
ff
00
01
02
fe
ff
00
01
02
fe
ff
00
01
02
fe
ff
00
01
02
fe
ff
00
01
02
fe
ff
00
01
02
fe
ff
00
01
02
fe
ff
00
01
02
fe
ff
00
01
02
fe
ff
00
01
02
fe
ff
00
01
02
fe
ff
00
01
02
fe
ff
00
01
02
fe
ff
00
01
02
fe
ff
00
01
02
fe
ff
00
01
02
fe
ff
00
01
02
fe
ff
00
01
02
fe
ff
00
01
02
fe
ff
00
01
02
fe
ff
00
01
02
fe
ff
00
01
02
fe
ff
00
01
02
fe
ff
00
01
02
fe
ff
00
01
02
fe
ff
00
01
02
fe
ff
00
01
02
fe
ff
00
01
02
fe
ff
00
01
02
fe
ff
00
01
02
fe
ff
00
01
02
fe
ff
00
01
02
fe
ff
00
01
02
fe
ff
00
01
02
fe
ff
00
01
02
fe
ff
00
01
02
fe
ff
00
01
02
fe
ff
00
01
02
fe
ff
00
01
02
fe
ff
00
01
02
fe
ff
00
01
02
fe
ff
00
01
02
fe
ff
00
01
02
fe
ff
00
01
02
fe
ff
00
01
02
fe
ff
00
01
02
fe
ff
00
01
02
fe
ff
00
01
02
fe
ff
00
01
02
fe
ff
00
01
02
fe
ff
00
01
02
fe
ff
00
01
02
fe
ff
00
01
02
fe
ff
00
01
02
fe
ff
00
01
02
fe
ff
00
01
02
fe
ff
00
01
02
fe
ff
00
01
02
fe
ff
00
01
02
fe
ff
00
01
02
fe
ff
00
01
02
fe
ff
00
01
02
fe
ff
00
01
02
fe
ff
00
01
02
fe
ff
00
01
02
fe
ff
00
01
02
fe
ff
00
01
02
fe
ff
00
01
02
fe
ff
00
01
02
fe
ff
00
01
02
fe
ff
00
01
02
fe
ff
00
01
02
fe
ff
00
01
02
fe
ff
00
01
02
fe
ff
00
01
02
fe
ff
00
01
02
fe
ff
00
01
02
fe
ff
00
01
02
fe
ff
00
01
02
fe
ff
00
01
02
fe
ff
00
01
02
fe
ff
00
01
02
fe
ff
00
01
02
fe
ff
00
01
02
fe
ff
00
01
02
fe
ff
00
01
02
fe
ff
00
01
02
fe
ff
00
01
02
fe
ff
00
01
02
fe
ff
00
01
02
fe
ff
00
01
02
fe
ff
00
01
02
fe
ff
00
01
02
fe
ff
00
01
02
fe
ff
00
01
02
fe
ff
00
01
02
fe
ff
00
01
02
fe
ff
00
01
02
fe
ff
00
01
02
fe
ff
00
01
02
fe
ff
00
01
02
fe
ff
00
01
02
fe
ff
00
01
02
fe
ff
00
01
02
fe
ff
00
01
02
fe
ff
00
01
02
fe
ff
00
01
02
fe
ff
00
01
02
fe
ff
00
01
02
fe
ff
00
01
02
fe
ff
00
01
02
fe
ff
00
01
02
fe
ff
00
01
02
fe
ff
00
01
02
fe
ff
00
01
02
fe
ff
00
01
02
fe
ff
00
01
02
fe
ff
00
01
02
fe
ff
00
01
02
fe
ff
00
01
02
fe
ff
00
01
02
fe
ff
00
01
02
fe
ff
00
01
02
fe
ff
00
01
02
fe
ff
00
01
02
fe
ff
00
01
02
fe
ff
00
01
02
fe
ff
00
01
02
fe
ff
00
01
02
fe
ff
00
01
02
fe
ff
00
01
02
fe
ff
00
01
02
fe
ff
00
01
02
fe
ff
00
01
02
fe
ff
00
01
02
fe
ff
00
01
02
fe
ff
00
01
02
fe
ff
00
01
02
fe
ff
00
01
02
fe
ff
00
01
02
fe
ff
00
01
02
fe
ff
00
01
02
fe
ff
00
01
02
fe
ff
00
01
02
fe
ff
00
01
02
fe
ff
00
01
02
fe
ff
00
01
02
fe
ff
00
01
02
fe
ff
00
01
02
fe
ff
00
01
02
fe
ff
00
01
02
fe
ff
00
01
02
fe
ff
00
01
02
fe
ff
00
01
02
fe
ff
00
01
02
fe
ff
00
01
02
fe
ff
00
01
02
fe
ff
00
01
02
fe
ff
00
01
02
fe
ff
00
01
02
fe
ff
00
01
02
fe
ff
00
01
02
fe
ff
00
01
02
fe
ff
00
01
02
fe
ff
00
01
02
fe
ff
00
01
02
fe
ff
00
01
02
fe
ff
00
01
02
fe
ff
00
01
02
fe
ff
00
01
02
fe
ff
00
01
02
fe
ff
00
01
02
fe
ff
00
01
02
fe
ff
00
01
02
fe
ff
00
01
02
fe
ff
00
01
02
fe
ff
00
01
02
fe
ff
00
01
02
fe
ff
00
01
02
fe
ff
00
01
02
fe
ff
00
01
02
fe
ff
00
01
02
fe
ff
00
01
02
fe
ff
00
01
02
fe
ff
00
01
02
fe
ff
00
01
02
fe
ff
00
01
02
fe
ff
00
01
02
fe
ff
00
01
02
fe
ff
00
01
02
fe
ff
00
01
02
fe
ff
00
01
02
fe
ff
00
01
02
fe
ff
00
01
02
fe
ff
00
01
02
fe
ff
00
01
02
fe
ff
00
01
02
fe
ff
00
01
02
fe
ff
00
01
02
fe
ff
00
01
02
fe
ff
00
01
02
fe
ff
00
01
02
fe
ff
00
01
02
fe
ff
00
01
02
fe
ff
00
01
02
fe
ff
00
01
02
fe
ff
00
01
02
fe
ff
00
01
02
fe
ff
00
01
02
fe
ff
00
01
02
fe
ff
00
01
02
fe
ff
00
01
02
fe
ff
00
01
02
fe
ff
00
01
02
fe
ff
00
01
02
fe
ff
00
01
02
fe
ff
00
01
02
fe
ff
00
01
02
fe
ff
00
01
02
fe
ff
00
01
02
fe
ff
00
01
02
fe
ff
00
01
02
fe
ff
00
01
02
fe
ff
00
01
02
fe
ff
00
01
02
fe
ff
00
01
02
fe
ff
00
01
02
fe
ff
00
01
02
fe
ff
00
01
02
fe
ff
00
01
02
fe
ff
00
01
02
fe
ff
00
01
02
fe
ff
00
01
02
fe
ff
00
01
02
fe
ff
00
01
02
fe
ff
00
01
02
fe
ff
00
01
02
fe
ff
00
01
02
fe
ff
00
01
02
fe
ff
00
01
02
fe
ff
00
01
02
fe
ff
00
01
02
fe
ff
00
01
02
fe
ff
00
01
02
fe
ff
00
01
02
fe
ff
00
01
02
fe
ff
00
01
02
fe
ff
00
01
02
fe
ff
00
01
02
fe
ff
00
01
02
fe
ff
00
01
02
fe
ff
00
01
02
fe
ff
00
01
02
fe
ff
00
01
02
fe
ff
00
01
02
fe
ff
00
01
02
fe
ff
00
01
02
fe
ff
00
01
02
fe
ff
00
01
02
fe
ff
00
01
02
fe
ff
00
01
02
fe
ff
00
01
02
fe
ff
00
01
02
fe
ff
00
01
02
fe
ff
00
01
02
fe
ff
00
01
02
fe
ff
00
01
02
fe
ff
00
01
02
fe
ff
00
01
02
fe
ff
00
01
02
fe
ff
00
01
02
fe
ff
00
01
02
fe
ff
00
01
02
fe
ff
00
01
02
fe
ff
00
01
02
fe
ff
00
01
02
fe
ff
00
01
02
fe
ff
00
01
02
fe
ff
00
01
02
fe
ff
00
01
02
fe
ff
00
01
02
fe
ff
00
01
02
fe
ff
00
01
02
fe
ff
00
01
02
fe
ff
00
01
02
fe
ff
00
01
02
fe
ff
00
01
02
fe
ff
00
01
02
fe
ff
00
01
02
fe
ff
00
01
02
fe
ff
00
01
02
fe
ff
00
01
02
fe
ff
00
01
02
fe
ff
00
01
02
fe
ff
00
01
02
fe
ff
00
01
02
fe
ff
00
01
02
fe
ff
00
01
02
fe
ff
00
01
02
fe
ff
00
01
02
fe
ff
00
01
02
fe
ff
00
01
02
fe
ff
00
01
02
fe
ff
00
01
02
fe
ff
00
01
02
fe
ff
00
01
02
fe
ff
00
01
02
fe
ff
00
01
02
fe
ff
00
01
02
fe
ff
00
01
02
fe
ff
00
01
02
fe
ff
00
01
02
fe
ff
00
01
02
fe
ff
00
01
02
fe
ff
00
01
02
fe
ff
00
01
02
fe
ff
00
01
02
fe
ff
00
01
02
fe
ff
00
01
02
fe
ff
00
01
02
fe
ff
00
01
02
fe
ff
00
01
02
fe
ff
00
01
02
fe
ff
00
01
02
fe
ff
00
01
02
fe
ff
00
01
02
fe
ff
00
01
02
fe
ff
00
01
02
fe
ff
00
01
02
fe
ff
00
01
02
fe
ff
00
01
02
fe
ff
00
01
02
fe
ff
00
01
02
fe
ff
00
01
02
fe
ff
00
01
02
fe
ff
00
01
02
fe
ff
00
01
02
fe
ff
00
01
02
fe
ff
00
01
02
fe
ff
00
01
02
fe
ff
00
01
02
fe
ff
00
01
02
fe
ff
00
01
02
fe
ff
00
01
02
fe
ff
00
01
02
fe
ff
00
01
02
fe
ff
00
01
02
fe
ff
00
01
02
fe
ff
00
01
02
fe
ff
00
01
02
fe
ff
00
01
02
fe
ff
00
01
02
fe
ff
00
01
02
fe
ff
00
01
02
fe
ff
00
01
02
fe
ff
00
01
02
fe
ff
00
01
02
fe
ff
00
01
02
fe
ff
00
01
02
fe
ff
00
01
02
fe
ff
00
01
02
fe
ff
00
01
02
fe
ff
00
01
02
fe
ff
00
01
02
fe
ff
00
01
02
fe
ff
00
01
02
fe
ff
00
01
02
fe
ff
00
01
02
fe
ff
00
01
02
fe
ff
00
01
02
fe
ff
00
01
02
fe
ff
00
01
02
fe
ff
00
01
02
fe
ff
00
01
02
fe
ff
00
01
02
fe
ff
00
01
02
fe
ff
00
01
02
fe
ff
00
01
02
fe
ff
00
01
02
fe
ff
00
01
02
fe
ff
00
01
02
fe
ff
00
01
02
fe
ff
00
01
02
fe
ff
00
01
02
fe
ff
00
01
02
fe
ff
00
01
02
fe
ff
00
01
02
fe
ff
00
01
02
fe
ff
00
01
02
fe
ff
00
01
02
fe
ff
00
01
02
fe
ff
00
01
02
fe
ff
00
01
02
fe
ff
00
01
02
fe
ff
00
01
02
fe
ff
00
01
02
fe
ff
00
01
02
fe
ff
00
01
02
fe
ff
00
01
02
fe
ff
00
01
02
fe
ff
00
01
02
fe
ff
00
01
02
fe
ff
00
01
02
fe
ff
00
01
02
fe
ff
00
01
02
fe
ff
00
01
02
fe
ff
00
01
02
fe
ff
00
01
02
fe
ff
00
01
02
fe
ff
00
01
02
fe
ff
00
01
02
fe
ff
00
01
02
fe
ff
00
01
02
fe
ff
00
01
02
fe
ff
00
01
02
fe
ff
00
01
02
fe
ff
00
01
02
fe
ff
00
01
02
fe
ff
00
01
02
fe
ff
00
01
02
fe
ff
00
01
02
fe
ff
00
01
02
fe
ff
00
01
02
fe
ff
00
01
02
fe
ff
00
01
02
fe
ff
00
01
02
fe
ff
00
01
02
fe
ff
00
01
02
fe
ff
00
01
02
fe
ff
00
01
02
fe
ff
00
01
02
fe
ff
00
01
02
fe
ff
00
01
02
fe
ff
00
01
02
fe
ff
00
01
02
fe
ff
00
01
02
fe
ff
00
01
02
fe
ff
00
01
02
fe
ff
00
01
02
fe
ff
00
01
02
fe
ff
00
01
02
fe
ff
00
01
02
fe
ff
00
01
02
fe
ff
00
01
02
fe
ff
00
01
02
fe
ff
00
01
02
fe
ff
00
01
02
fe
ff
00
01
02
fe
ff
00
01
02
fe
ff
00
01
02
fe
ff
00
01
02
fe
ff
00
01
02
fe
ff
00
01
02
fe
ff
00
01
02
fe
ff
00
01
02
fe
ff
00
01
02
fe
ff
00
01
02
fe
ff
00
01
02
fe
ff
00
01
02
fe
ff
00
01
02
fe
ff
00
01
02
fe
ff
00
01
02
fe
ff
00
01
02
fe
ff
00
01
02
fe
ff
00
01
02
fe
ff
00
01
02
fe
ff
00
01
02
fe
ff
00
01
02
fe
ff
00
01
02
fe
ff
00
01
02
fe
ff
00
01
02
fe
ff
00
01
02
fe
ff
00
01
02
fe
ff
00
01
02
fe
ff
00
01
02
fe
ff
00
01
02
fe
ff
00
01
02
fe
ff
00
01
02
fe
ff
00
01
02
fe
ff
00
01
02
fe
ff
00
01
02
fe
ff
00
01
02
fe
ff
00
01
02
fe
ff
00
01
02
fe
ff
00
01
02
fe
ff
00
01
02
fe
ff
00
01
02
fe
ff
00
01
02
fe
ff
00
01
02
fe
ff
00
01
02
fe
ff
00
01
02
fe
ff
00
01
02
fe
ff
00
01
02
fe
ff
00
01
02
fe
ff
00
01
02
fe
ff
00
01
02
fe
ff
00
01
02
fe
ff
00
01
02
fe
ff
00
01
02
fe
ff
00
01
02
fe
ff
00
01
02
fe
ff
00
01
02
fe
ff
00
01
02
fe
ff
00
01
02
fe
ff
00
01
02
fe
ff
00
01
02
fe
ff
00
01
02
fe
ff
00
01
02
fe
ff
00
01
02
fe
ff
00
01
02
fe
ff
00
01
02
fe
ff
00
01
02
fe
ff
00
01
02
fe
ff
00
01
02
fe
ff
00
01
02
fe
ff
00
01
02
fe
ff
00
01
02
fe
ff
00
01
02
fe
ff
00
01
02
fe
ff
00
01
02
fe
ff
00
01
02
fe
ff
00
01
02
fe
ff
00
01
02
fe
ff
00
01
02
fe
ff
00
01
02
fe
ff
00
01
02
fe
ff
00
01
02
fe
ff
00
01
02
fe
ff
00
01
02
fe
ff
00
01
02
fe
ff
00
01
02
fe
ff
00
01
02
fe
ff
00
01
02
fe
ff
00
01
02
fe
ff
00
01
02
fe
ff
00
01
02
fe
ff
00
01
02
fe
ff
00
01
02
fe
ff
00
01
02
fe
ff
00
01
02
fe
ff
00
01
02
fe
ff
00
01
02
fe
ff
00
01
02
fe
ff
00
01
02
fe
ff
00
01
02
fe
ff
00
01
02
fe
ff
00
01
02
fe
ff
00
01
02
fe
ff
00
01
02
fe
ff
00
01
02
fe
ff
00
01
02
fe
ff
00
01
02
fe
ff
00
01
02
fe
ff
00
01
02
fe
ff
00
01
02
fe
ff
00
01
02
fe
ff
00
01
02
fe
ff
00
01
02
fe
ff
00
01
02
fe
ff
00
01
02
fe
ff
00
01
02
fe
ff
00
01
02
fe
ff
00
01
02
fe
ff
00
01
02
fe
ff
00
01
02
fe
ff
00
01
02
fe
ff
00
01
02
fe
ff
00
01
02
fe
ff
00
01
02
fe
ff
00
01
02
fe
ff
00
01
02
fe
ff
00
01
02
fe
ff
00
01
02
fe
ff
00
01
02
fe
ff
00
01
02
fe
ff
00
01
02
fe
ff
00
01
02
fe
ff
00
01
02
fe
ff
00
01
02
fe
ff
00
01
02
fe
ff
00
01
02
fe
ff
00
01
02
fe
ff
00
01
02
fe
ff
00
01
02
fe
ff
00
01
02
fe
ff
00
01
02
fe
ff
00
01
02
fe
ff
00
01
02
fe
ff
00
01
02
fe
ff
00
01
02
fe
ff
00
01
02
fe
ff
00
01
02
fe
ff
00
01
02
fe
ff
00
01
02
fe
ff
00
01
02
fe
ff
00
01
02
fe
ff
00
01
02
fe
ff
00
01
02
fe
ff
00
01
02
fe
ff
00
01
02
fe
ff
00
01
02
fe
ff
00
01
02
fe
ff
00
01
02
fe
ff
00
01
02
fe
ff
00
01
02
fe
ff
00
01
02
fe
ff
00
01
02
fe
ff
00
01
02
fe
ff
00
01
02
fe
ff
00
01
02
fe
ff
00
01
02
fe
ff
00
01
02
fe
ff
00
01
02
fe
ff
00
01
02
fe
ff
00
01
02
fe
ff
00
01
02
fe
ff
00
01
02
fe
ff
00
01
02
fe
ff
00
01
02
fe
ff
00
01
02
fe
ff
00
01
02
fe
ff
00
01
02
fe
ff
00
01
02
fe
ff
00
01
02
fe
ff
00
01
02
fe
ff
00
01
02
fe
ff
00
01
02
fe
ff
00
01
02
fe
ff
00
01
02
fe
ff
00
01
02
fe
ff
00
01
02
fe
ff
00
01
02
fe
ff
00
01
02
fe
ff
00
01
02
fe
ff
00
01
02
fe
ff
00
01
02
fe
ff
00
01
02
fe
ff
00
01
02
fe
ff
00
01
02
fe
ff
00
01
02
fe
ff
00
01
02
fe
ff
00
01
02
fe
ff
00
01
02
fe
ff
00
01
02
fe
ff
00
01
02
fe
ff
00
01
02
fe
ff
00
01
02
fe
ff
00
01
02
fe
ff
00
01
02
fe
ff
00
01
02
fe
ff
00
01
02
fe
ff
00
01
02
fe
ff
00
01
02
fe
ff
00
01
02
fe
ff
00
01
02
fe
ff
00
01
02
fe
ff
00
01
02
fe
ff
00
01
02
fe
ff
00
01
02
fe
ff
00
01
02
fe
ff
00
01
02
fe
ff
00
01
02
fe
ff
00
01
02
fe
ff
00
01
02
fe
ff
00
01
02
fe
ff
00
01
02
fe
ff
00
01
02
fe
ff
00
01
02
fe
ff
00
01
02
fe
ff
00
01
02
fe
ff
00
01
02
fe
ff
00
01
02
fe
ff
00
01
02
fe
ff
00
01
02
fe
ff
00
01
02
fe
ff
00
01
02
fe
ff
00
01
02
fe
ff
00
01
02
fe
ff
00
01
02
fe
ff
00
01
02
fe
ff
00
01
02
fe
ff
00
01
02
fe
ff
00
01
02
fe
ff
00
01
02
fe
ff
00
01
02
fe
ff
00
01
02
fe
ff
00
01
02
fe
ff
00
01
02
fe
ff
00
01
02
fe
ff
00
01
02
fe
ff
00
01
02
fe
ff
00
01
02
fe
ff
00
01
02
fe
ff
00
01
02
fe
ff
00
01
02
fe
ff
00
01
02
fe
ff
00
01
02
fe
ff
00
01
02
fe
ff
00
01
02
fe
ff
00
01
02
fe
ff
00
01
02
fe
ff
00
01
02
fe
ff
00
01
02
fe
ff
00
01
02
fe
ff
00
01
02
fe
ff
00
01
02
fe
ff
00
01
02
fe
ff
00
01
02
fe
ff
00
01
02
fe
ff
00
01
02
fe
ff
00
01
02
fe
ff
00
01
02
fe
ff
00
01
02
fe
ff
00
01
02
fe
ff
00
01
02
fe
ff
00
01
02
fe
ff
00
01
02
fe
ff
00
01
02
fe
ff
00
01
02
fe
ff
00
01
02
fe
ff
00
01
02
fe
ff
00
01
02
fe
ff
00
01
02
fe
ff
00
01
02
fe
ff
00
01
02
fe
ff
00
01
02
fe
ff
00
01
02
fe
ff
00
01
02
fe
ff
00
01
02
fe
ff
00
01
02
fe
ff
00
01
02
fe
ff
00
01
02
fe
ff
00
01
02
fe
ff
00
01
02
fe
ff
00
01
02
fe
ff
00
01
02
fe
ff
00
01
02
fe
ff
00
01
02
fe
ff
00
01
02
fe
ff
00
01
02
fe
ff
00
01
02
fe
ff
00
01
02
fe
ff
00
01
02
fe
ff
00
01
02
fe
ff
00
01
02
fe
ff
00
01
02
fe
ff
00
01
02
fe
ff
00
01
02
fe
ff
00
01
02
fe
ff
00
01
02
fe
ff
00
01
02
fe
ff
00
01
02
fe
ff
00
01
02
fe
ff
00
01
02
fe
ff
00
01
02
fe
ff
00
01
02
fe
ff
00
01
02
fe
ff
00
01
02
fe
ff
00
01
02
fe
ff
00
01
02
fe
ff
00
01
02
fe
ff
00
01
02
fe
ff
00
01
02
fe
ff
00
01
02
fe
ff
00
01
02
fe
ff
00
01
02
fe
ff
00
01
02
fe
ff
00
01
02
fe
ff
00
01
02
fe
ff
00
01
02
fe
ff
00
01
02
fe
ff
00
01
02
fe
ff
00
01
02
fe
ff
00
01
02
fe
ff
00
01
02
fe
ff
00
01
02
fe
ff
00
01
02
fe
ff
00
01
02
fe
ff
00
01
02
fe
ff
00
01
02
fe
ff
00
01
02
fe
ff
00
01
02
fe
ff
00
01
02
fe
ff
00
01
02
fe
ff
00
01
02
fe
ff
00
01
02
fe
ff
00
01
02
fe
ff
00
01
02
fe
ff
00
01
02
fe
ff
00
01
02
fe
ff
00
01
02
fe
ff
00
01
02
fe
ff
00
01
02
fe
ff
00
01
02
fe
ff
00
01
02
fe
ff
00
01
02
fe
ff
00
01
02
fe
ff
00
01
02
fe
ff
00
01
02
fe
ff
00
01
02
fe
ff
00
01
02
fe
ff
00
01
02
fe
ff
00
01
02
fe
ff
00
01
02
fe
ff
00
01
02
fe
ff
00
01
02
fe
ff
00
01
02
fe
ff
00
01
02
fe
ff
00
01
02
fe
ff
00
01
02
fe
ff
00
01
02
fe
ff
00
01
02
fe
ff
00
01
02
fe
ff
00
01
02
fe
ff
00
01
02
fe
ff
00
01
02
fe
ff
00
01
02
fe
ff
00
01
02
fe
ff
00
01
02
fe
ff
00
01
02
fe
ff
00
01
02
fe
ff
00
01
02
fe
ff
00
01
02
fe
ff
00
01
02
fe
ff
00
01
02
fe
ff
00
01
02
fe
ff
00
01
02
fe
ff
00
01
02
fe
ff
00
01
02
fe
ff
00
01
02
fe
ff
00
01
02
fe
ff
00
01
02
fe
ff
00
01
02
fe
ff
00
01
02
fe
ff
00
01
02
fe
ff
00
01
02
fe
ff
00
01
02
fe
ff
00
01
02
fe
ff
00
01
02
fe
ff
00
01
02
fe
ff
00
01
02
fe
ff
00
01
02
fe
ff
00
01
02
fe
ff
00
01
02
fe
ff
00
01
02
fe
ff
00
01
02
fe
ff
00
01
02
fe
ff
00
01
02
fe
ff
00
01
02
fe
ff
00
01
02
fe
ff
00
01
02
fe
ff
00
01
02
fe
ff
00
01
02
fe
ff
00
01
02
fe
ff
00
01
02
fe
ff
00
01
02
fe
ff
00
01
02
fe
ff
00
01
02
fe
ff
00
01
02
fe
ff
00
01
02
fe
ff
00
01
02
fe
ff
00
01
02
fe
ff
00
01
02
fe
ff
00
01
02
fe
ff
00
01
02
fe
ff
00
01
02
fe
ff
00
01
02
fe
ff
00
01
02
fe
ff
00
01
02
fe
ff
00
01
02
fe
ff
00
01
02
fe
ff
00
01
02
fe
ff
00
01
02
fe
ff
00
01
02
fe
ff
00
01
02
fe
ff
00
01
02
fe
ff
00
01
02
fe
ff
00
01
02
fe
ff
00
01
02
fe
ff
00
01
02
fe
ff
00
01
02
fe
ff
00
01
02
fe
ff
00
01
02
fe
ff
00
01
02
fe
ff
00
01
02
fe
ff
00
01
02
fe
ff
00
01
02
fe
ff
00
01
02
fe
ff
00
01
02
fe
ff
00
01
02
fe
ff
00
01
02
fe
ff
00
01
02
fe
ff
00
01
02
fe
ff
00
01
02
fe
ff
00
01
02
fe
ff
00
01
02
fe
ff
00
01
02
fe
ff
00
01
02
fe
ff
00
01
02
fe
ff
00
01
02
fe
ff
00
01
02
fe
ff
00
01
02
fe
ff
00
01
02
fe
ff
00
01
02
fe
ff
00
01
02
fe
ff
00
01
02
fe
ff
00
01
02
fe
ff
00
01
02
fe
ff
00
01
02
fe
ff
00
01
02
fe
ff
00
01
02
fe
ff
00
01
02
fe
ff
00
01
02
fe
ff
00
01
02
fe
ff
00
01
02
fe
ff
00
01
02
fe
ff
00
01
02
fe
ff
00
01
02
fe
ff
00
01
02
fe
ff
00
01
02
fe
ff
00
01
02
fe
ff
00
01
02
fe
ff
00
01
02
fe
ff
00
01
02
fe
ff
00
01
02
fe
ff
00
01
02
fe
ff
00
01
02
fe
ff
00
01
02
fe
ff
00
01
02
fe
ff
00
01
02
fe
ff
00
01
02
fe
ff
00
01
02
fe
ff
00
01
02
fe
ff
00
01
02
fe
ff
00
01
02
fe
ff
00
01
02
fe
ff
00
01
02
fe
ff
00
01
02
fe
ff
00
01
02
fe
ff
00
01
02
fe
ff
00
01
02
fe
ff
00
01
02
fe
ff
00
01
02
fe
ff
00
01
02
fe
ff
00
01
02
fe
ff
00
01
02
fe
ff
00
01
02
fe
ff
00
01
02
fe
ff
00
01
02
fe
ff
00
01
02
fe
ff
00
01
02
fe
ff
00
01
02
fe
ff
00
01
02
fe
ff
00
01
02
fe
ff
00
01
02
fe
ff
00
01
02
fe
ff
00
01
02
fe
ff
00
01
02
fe
ff
00
01
02
fe
ff
00
01
02
fe
ff
00
01
02
fe
ff
00
01
02
fe
ff
00
01
02
fe
ff
00
01
02
fe
ff
00
01
02
fe
ff
00
01
02
fe
ff
00
01
02
fe
ff
00
01
02
fe
ff
00
01
02
fe
ff
00
01
02
fe
ff
00
01
02
fe
ff
00
01
02
fe
ff
00
01
02
fe
ff
00
01
02
fe
ff
00
01
02
fe
ff
00
01
02
fe
ff
00
01
02
fe
ff
00
01
02
fe
ff
00
01
02
fe
ff
00
01
02
fe
ff
00
01
02
fe
ff
00
01
02
fe
ff
00
01
02
fe
ff
00
01
02
fe
ff
00
01
02
fe
ff
00
01
02
fe
ff
00
01
02
fe
ff
00
01
02
fe
ff
00
01
02
fe
ff
00
01
02
fe
ff
00
01
02
fe
ff
00
01
02
fe
ff
00
01
02
fe
ff
00
01
02
fe
ff
00
01
02
fe
ff
00
01
02
fe
ff
00
01
02
fe
ff
00
01
02
fe
ff
00
01
02
fe
ff
00
01
02
fe
ff
00
01
02
fe
ff
00
01
02
fe
ff
00
01
02
fe
ff
00
01
02
fe
ff
00
01
02
fe
ff
00
01
02
fe
ff
00
01
02
fe
ff
00
01
02
fe
ff
00
01
02
fe
ff
00
01
02
fe
ff
00
01
02
fe
ff
00
01
02
fe
ff
00
01
02
fe
ff
00
01
02
fe
ff
00
01
02
fe
ff
00
01
02
fe
ff
00
01
02
fe
ff
00
01
02
fe
ff
00
01
02
fe
ff
00
01
02
fe
ff
00
01
02
fe
ff
00
01
02
fe
ff
00
01
02
fe
ff
00
01
02
fe
ff
00
01
02
fe
ff
00
01
02
fe
ff
00
01
02
fe
ff
00
01
02
fe
ff
00
01
02
fe
ff
00
01
02
fe
ff
00
01
02
fe
ff
00
01
02
fe
ff
00
01
02
fe
ff
00
01
02
fe
ff
00
01
02
fe
ff
00
01
02
fe
ff
00
01
02
fe
ff
00
01
02
fe
ff
00
01
02
fe
ff
00
01
02
fe
ff
00
01
02
fe
ff
00
01
02
fe
ff
00
01
02
fe
ff
00
01
02
fe
ff
00
01
02
fe
ff
00
01
02
fe
ff
00
01
02
fe
ff
00
01
02
fe
ff
00
01
02
fe
ff
00
01
02
fe
ff
00
01
02
fe
ff
00
01
02
fe
ff
00
01
02
fe
ff
00
01
02
fe
ff
00
01
02
fe
ff
00
01
02
fe
ff
00
01
02
fe
ff
00
01
02
fe
ff
00
01
02
fe
ff
00
01
02
fe
ff
00
01
02
fe
ff
00
01
02
fe
ff
00
01
02
fe
ff
00
01
02
fe
ff
00
01
02
fe
ff
00
01
02
fe
ff
00
01
02
fe
ff
00
01
02
fe
ff
00
01
02
fe
ff
00
01
02
fe
ff
00
01
02
fe
ff
00
01
02
fe
ff
00
01
02
fe
ff
00
01
02
fe
ff
00
01
02
fe
ff
00
01
02
fe
ff
00
01
02
fe
ff
00
01
02
fe
ff
00
01
02
fe
ff
00
01
02
fe
ff
00
01
02
fe
ff
00
01
02
fe
ff
00
01
02
fe
ff
00
01
02
fe
ff
00
01
02
fe
ff
00
01
02
fe
ff
00
01
02
fe
ff
00
01
02
fe
ff
00
01
02
fe
ff
00
01
02
fe
ff
00
01
02
fe
ff
00
01
02
fe
ff
00
01
02
fe
ff
00
01
02
fe
ff
00
01
02
fe
ff
00
01
02
fe
ff
00
01
02
fe
ff
00
01
02
fe
ff
00
01
02
fe
ff
00
01
02
fe
ff
00
01
02
fe
ff
00
01
02
fe
ff
00
01
02
fe
ff
00
01
02
fe
ff
00
01
02
fe
ff
00
01
02
fe
ff
00
01
02
fe
ff
00
01
02
fe
ff
00
01
02
fe
ff
00
01
02
fe
ff
00
01
02
fe
ff
00
01
02
fe
ff
00
01
02
fe
ff
00
01
02
fe
ff
00
01
02
fe
ff
00
01
02
fe
ff
00
01
02
fe
ff
00
01
02
fe
ff
00
01
02
fe
ff
00
01
02
fe
ff
00
01
02
fe
ff
00
01
02
fe
ff
00
01
02
fe
ff
00
01
02
fe
ff
00
01
02
fe
ff
00
01
02
fe
ff
00
01
02
fe
ff
00
01
02
fe
ff
00
01
02
fe
ff
00
01
02
fe
ff
00
01
02
fe
ff
00
01
02
fe
ff
00
01
02
fe
ff
00
01
02
fe
ff
00
01
02
fe
ff
00
01
02
fe
ff
00
01
02
fe
ff
00
01
02
fe
ff
00
01
02
fe
ff
00
01
02
fe
ff
00
01
02
fe
ff
00
01
02
fe
ff
00
01
02
fe
ff
00
01
02
fe
ff
00
01
02
fe
ff
00
01
02
fe
ff
00
01
02
fe
ff
00
01
02
fe
ff
00
01
02
fe
ff
00
01
02
fe
ff
00
01
02
fe
ff
00
01
02
fe
ff
00
01
02
fe
ff
00
01
02
fe
ff
00
01
02
fe
ff
00
01
02
fe
ff
00
01
02
fe
ff
00
01
02
fe
ff
00
01
02
fe
ff
00
01
02
fe
ff
00
01
02
fe
ff
00
01
02
fe
ff
00
01
02
fe
ff
00
01
02
fe
ff
00
01
02
fe
ff
00
01
02
fe
ff
00
01
02
fe
ff
00
01
02
fe
ff
00
01
02
fe
ff
00
01
02
fe
ff
00
01
02
fe
ff
00
01
02
fe
ff
00
01
02
fe
ff
00
01
02
fe
ff
00
01
02
fe
ff
00
01
02
fe
ff
00
01
02
fe
ff
00
01
02
fe
ff
00
01
02
fe
ff
00
01
02
fe
ff
00
01
02
fe
ff
00
01
02
fe
ff
00
01
02
fe
ff
00
01
02
fe
ff
00
01
02
fe
ff
00
01
02
fe
ff
00
01
02
fe
ff
00
01
02
fe
ff
00
01
02
fe
ff
00
01
02
fe
ff
00
01
02
fe
ff
00
01
02
fe
ff
00
01
02
fe
ff
00
01
02
fe
ff
00
01
02
fe
ff
00
01
02
fe
ff
00
01
02
fe
ff
00
01
02
fe
ff
00
01
02
fe
ff
00
01
02
fe
ff
00
01
02
fe
ff
00
01
02
fe
ff
00
01
02
fe
ff
00
01
02
fe
ff
00
01
02
fe
ff
00
01
02
fe
ff
00
01
02
fe
ff
00
01
02
fe
ff
00
01
02
fe
ff
00
01
02
fe
ff
00
01
02
fe
ff
00
01
02
fe
ff
00
01
02
fe
ff
00
01
02
fe
ff
00
01
02
fe
ff
00
01
02
fe
ff
00
01
02
fe
ff
00
01
02
fe
ff
00
01
02
fe
ff
00
01
02
fe
ff
00
01
02
fe
ff
00
01
02
fe
ff
00
01
02
fe
ff
00
01
02
fe
ff
00
01
02
fe
ff
00
01
02
fe
ff
00
01
02
fe
ff
00
01
02
fe
ff
00
01
02
fe
ff
00
01
02
fe
ff
00
01
02
fe
ff
00
01
02
fe
ff
00
01
02
fe
ff
00
01
02
fe
ff
00
01
02
fe
ff
00
01
02
fe
ff
00
01
02
fe
ff
00
01
02
fe
ff
00
01
02
fe
ff
00
01
02
fe
ff
00
01
02
fe
ff
00
01
02
fe
ff
00
01
02
fe
ff
00
01
02
fe
ff
00
01
02
fe
ff
00
01
02
fe
ff
00
01
02
fe
ff
00
01
02
fe
ff
00
01
02
fe
ff
00
01
02
fe
ff
00
01
02
fe
ff
00
01
02
fe
ff
00
01
02
fe
ff
00
01
02
fe
ff
00
01
02
fe
ff
00
01
02
fe
ff
00
01
02
fe
ff
00
01
02
fe
ff
00
01
02
fe
ff
00
01
02
fe
ff
00
01
02
fe
ff
00
01
02
fe
ff
00
01
02
fe
ff
00
01
02
fe
ff
00
01
02
fe
ff
00
01
02
fe
ff
00
01
02
fe
ff
00
01
02
fe
ff
00
01
02
fe
ff
00
01
02
fe
ff
00
01
02
fe
ff
00
01
02
fe
ff
00
01
02
fe
ff
00
01
02
fe
ff
00
01
02
fe
ff
00
01
02
fe
ff
00
01
02
fe
ff
00
01
02
fe
ff
00
01
02
fe
ff
00
01
02
fe
ff
00
01
02
fe
ff
00
01
02
fe
ff
00
01
02
fe
ff
00
01
02
fe
ff
00
01
02
fe
ff
00
01
02
fe
ff
00
01
02
fe
ff
00
01
02
fe
ff
00
01
02
fe
ff
00
01
02
fe
ff
00
01
02
fe
ff
00
01
02
fe
ff
00
01
02
fe
ff
00
01
02
fe
ff
00
01
02
fe
ff
00
01
02
fe
ff
00
01
02
fe
ff
00
01
02
fe
ff
00
01
02
fe
ff
00
01
02
fe
ff
00
01
02
fe
ff
00
01
02
fe
ff
00
01
02
fe
ff
00
01
02
fe
ff
00
01
02
fe
ff
00
01
02
fe
ff
00
01
02
fe
ff
00
01
02
fe
ff
00
01
02
fe
ff
00
01
02
fe
ff
00
01
02
fe
ff
00
01
02
fe
ff
00
01
02
fe
ff
00
01
02
fe
ff
00
01
02
fe
ff
00
01
02
fe
ff
00
01
02
fe
ff
00
01
02
fe
ff
00
01
02
fe
ff
00
01
02
fe
ff
00
01
02
fe
ff
00
01
02
fe
ff
00
01
02
fe
ff
00
01
02
fe
ff
00
01
02
fe
ff
00
01
02
fe
ff
00
01
02
fe
ff
00
01
02
fe
ff
00
01
02
fe
ff
00
01
02
fe
ff
00
01
02
fe
ff
00
01
02
fe
ff
00
01
02
fe
ff
00
01
02
fe
ff
00
01
02
fe
ff
00
01
02
fe
ff
00
01
02
fe
ff
00
01
02
fe
ff
00
01
02
fe
ff
00
01
02
fe
ff
00
01
02
fe
ff
00
01
02
fe
ff
00
01
02
fe
ff
00
01
02
fe
ff
00
01
02
fe
ff
00
01
02
fe
ff
00
01
02
fe
ff
00
01
02
fe
ff
00
01
02
fe
ff
00
01
02
fe
ff
00
01
02
fe
ff
00
01
02
fe
ff
00
01
02
fe
ff
00
01
02
fe
ff
00
01
02
fe
ff
00
01
02
fe
ff
00
01
02
fe
ff
00
01
02
fe
ff
00
01
02
fe
ff
00
01
02
fe
ff
00
01
02
fe
ff
00
01
02
fe
ff
00
01
02
fe
ff
00
01
02
fe
ff
00
01
02
fe
ff
00
01
02
fe
ff
00
01
02
fe
ff
00
01
02
fe
ff
00
01
02
fe
ff
00
01
02
fe
ff
00
01
02
fe
ff
00
01
02
fe
ff
00
01
02
fe
ff
00
01
02
fe
ff
00
01
02
fe
ff
00
01
02
fe
ff
00
01
02
fe
ff
00
01
02
fe
ff
00
01
02
fe
ff
00
01
02
fe
ff
00
01
02
fe
ff
00
01
02
fe
ff
00
01
02
fe
ff
00
01
02
fe
ff
00
01
02
fe
ff
00
01
02
fe
ff
00
01
02
fe
ff
00
01
02
fe
ff
00
01
02
fe
ff
00
01
02
fe
ff
00
01
02
fe
ff
00
01
02
fe
ff
00
01
02
fe
ff
00
01
02
fe
ff
00
01
02
fe
ff
00
01
02
fe
ff
00
01
02
fe
ff
00
01
02
fe
ff
00
01
02
fe
ff
00
01
02
fe
ff
00
01
02
fe
ff
00
01
02
fe
ff
00
01
02
fe
ff
00
01
02
fe
ff
00
01
02
fe
ff
00
01
02
fe
ff
00
01
02
fe
ff
00
01
02
fe
ff
00
01
02
fe
ff
00
01
02
fe
ff
00
01
02
fe
ff
00
01
02
fe
ff
00
01
02
fe
ff
00
01
02
fe
ff
00
01
02
fe
ff
00
01
02
fe
ff
00
01
02
fe
ff
00
01
02
fe
ff
00
01
02
fe
ff
00
01
02
fe
ff
00
01
02
fe
ff
00
01
02
fe
ff
00
01
02
fe
ff
00
01
02
fe
ff
00
01
02
fe
ff
00
01
02
fe
ff
00
01
02
fe
ff
00
01
02
fe
ff
00
01
02
fe
ff
00
01
02
fe
ff
00
01
02
fe
ff
00
01
02
fe
ff
00
01
02
fe
ff
00
01
02
fe
ff
00
01
02
fe
ff
00
01
02
fe
ff
00
01
02
fe
ff
00
01
02
fe
ff
00
01
02
fe
ff
00
01
02
fe
ff
00
01
02
fe
ff
00
01
02
fe
ff
00
01
02
fe
ff
00
01
02
fe
ff
00
01
02
fe
ff
00
01
02
fe
ff
00
01
02
fe
ff
00
01
02
fe
ff
00
01
02
fe
ff
00
01
02
fe
ff
00
01
02
fe
ff
00
01
02
fe
ff
00
01
02
fe
ff
00
01
02
fe
ff
00
01
02
fe
ff
00
01
02
fe
ff
00
01
02
fe
ff
00
01
02
fe
ff
00
01
02
fe
ff
00
01
02
fe
ff
00
01
02
fe
ff
00
01
02
fe
ff
00
01
02
fe
ff
00
01
02
fe
ff
00
01
02
fe
ff
00
01
02
fe
ff
00
01
02
fe
ff
00
01
02
fe
ff
00
01
02
fe
ff
00
01
02
fe
ff
00
01
02
fe
ff
00
01
02
fe
ff
00
01
02
fe
ff
00
01
02
fe
ff
00
01
02
fe
ff
00
01
02
fe
ff
00
01
02
fe
ff
00
01
02
fe
ff
00
01
02
fe
ff
00
01
02
fe
ff
00
01
02
fe
ff
00
01
02
fe
ff
00
01
02
fe
ff
00
01
02
fe
ff
00
01
02
fe
ff
00
01
02
fe
ff
00
01
02
fe
ff
00
01
02
fe
ff
00
01
02
fe
ff
00
01
02
fe
ff
00
01
02
fe
ff
00
01
02
fe
ff
00
01
02
fe
ff
00
01
02
fe
ff
00
01
02
fe
ff
00
01
02
fe
ff
00
01
02
fe
ff
00
01
02
fe
ff
00
01
02
fe
ff
00
01
02
fe
ff
00
01
02
fe
ff
00
01
02
fe
ff
00
01
02
fe
ff
00
01
02
fe
ff
00
01
02
fe
ff
00
01
02
fe
ff
00
01
02
fe
ff
00
01
02
fe
ff
00
01
02
fe
ff
00
01
02
fe
ff
00
01
02
fe
ff
00
01
02
fe
ff
00
01
02
fe
ff
00
01
02
fe
ff
00
01
02
fe
ff
00
01
02
fe
ff
00
01
02
fe
ff
00
01
02
fe
ff
00
01
02
fe
ff
00
01
02
fe
ff
00
01
02
fe
ff
00
01
02
fe
ff
00
01
02
fe
ff
00
01
02
fe
ff
00
01
02
fe
ff
00
01
02
fe
ff
00
01
02
fe
ff
00
01
02
fe
ff
00
01
02
fe
ff
00
01
02
fe
ff
00
01
02
fe
ff
00
01
02
fe
ff
00
01
02
fe
ff
00
01
02
fe
ff
00
01
02
fe
ff
00
01
02
fe
ff
00
01
02
fe
ff
00
01
02
fe
ff
00
01
02
fe
ff
00
01
02
fe
ff
00
01
02
fe
ff
00
01
02
fe
ff
00
01
02
fe
ff
00
01
02
fe
ff
00
01
02
fe
ff
00
01
02
fe
ff
00
01
02
fe
ff
00
01
02
fe
ff
00
01
02
fe
ff
00
01
02
fe
ff
00
01
02
fe
ff
00
01
02
fe
ff
00
01
02
fe
ff
00
01
02
fe
ff
00
01
02
fe
ff
00
01
02
fe
ff
00
01
02
fe
ff
00
01
02
fe
ff
00
01
02
fe
ff
00
01
02
fe
ff
00
01
02
fe
ff
00
01
02
fe
ff
00
01
02
fe
ff
00
01
02
fe
ff
00
01
02
fe
ff
00
01
02
fe
ff
00
01
02
fe
ff
00
01
02
fe
ff
00
01
02
fe
ff
00
01
02
fe
ff
00
01
02
fe
ff
00
01
02
fe
ff
00
01
02
fe
ff
00
01
02
fe
ff
00
01
02
fe
ff
00
01
02
fe
ff
00
01
02
fe
ff
00
01
02
fe
ff
00
01
02
fe
ff
00
01
02
fe
ff
00
01
02
fe
ff
00
01
02
fe
ff
00
01
02
fe
ff
00
01
02
fe
ff
00
01
02
fe
ff
00
01
02
fe
ff
00
01
02
fe
ff
00
01
02
fe
ff
00
01
02
fe
ff
00
01
02
fe
ff
00
01
02
fe
ff
00
01
02
fe
ff
00
01
02
fe
ff
00
01
02
fe
ff
00
01
02
fe
ff
00
01
02
fe
ff
00
01
02
fe
ff
00
01
02
fe
ff
00
01
02
fe
ff
00
01
02
fe
ff
00
01
02
fe
ff
00
01
02
fe
ff
00
01
02
fe
ff
00
01
02
fe
ff
00
01
02
fe
ff
00
01
02
fe
ff
00
01
02
fe
ff
00
01
02
fe
ff
00
01
02
fe
ff
00
01
02
fe
ff
00
01
02
fe
ff
00
01
02
fe
ff
00
01
02
fe
ff
00
01
02
fe
ff
00
01
02
fe
ff
00
01
02
fe
ff
00
01
02
fe
ff
00
01
